the 2158444
i 2025989
a 1643171
to 1616177
s@@ 1417228
and 1324393
you 1260051
c@@ 1140887
e@@ 997629
is 958790
in 953229
d@@ 859257
p@@ 851844
it 836786
t@@ 833744
b@@ 805136
i@@ 803812
a@@ 792828
m@@ 787810
l@@ 763723
of 757929
t 738094
o@@ 719987
f@@ 706704
an@@ 698683
um 687599
in@@ 683497
es 664724
ed 663890
y 629546
w@@ 629250
my 621778
ing 617071
g@@ 599637
st@@ 575914
d 575592
en@@ 534805
h@@ 528104
s 527270
that 512385
on 494431
have 491768
r@@ 489067
re@@ 485748
for 481516
k@@ 472190
are 461628
er 459662
y@@ 435159
so 427134
ca@@ 422594
er@@ 415944
or@@ 406169
u@@ 405411
me 403656
th@@ 401749
can 400541
li@@ 397477
ar@@ 390007
like 384714
it's 383928
le@@ 369642
we 361008
do 358358
lo@@ 354347
err 347453
m 346692
n@@ 346012
v@@ 345981
e 343149
ma@@ 337769
la@@ 335184
k 335137
si@@ 332169
di@@ 328462
ri@@ 327708
they 327217
se 326855
ll 314481
be 311731
ve 310656
al@@ 310567
this 309768
think 305286
st 301227
what 299571
one 295951
ce 295395
with 293673
ro@@ 288150
or 286655
was 286329
on@@ 285396
ea@@ 284011
but 279833
i'm 278232
l 270730
we@@ 270106
your 268477
ly 265272
ti@@ 260282
de@@ 259846
some 256427
be@@ 254849
r 250999
very 244888
all 243285
n 243126
do@@ 243111
about 239149
ch@@ 235641
te@@ 234721
not 232755
ou@@ 230888
ra@@ 228636
to@@ 227403
ter 227303
ha@@ 226880
ho@@ 224590
fi@@ 224366
know 223961
en 223893
ne@@ 223287
co@@ 222619
rea@@ 222556
at 222169
there 219576
me@@ 218933
will 217044
le 216469
ex@@ 212331
people 211423
go 208413
it@@ 207961
don't 206802
se@@ 206579
ac@@ 206187
pro@@ 198531
bo@@ 197617
ts 196874
how 196002
just 193283
w 190989
us@@ 190950
good 190012
vi@@ 189844
sa@@ 188865
ty 188825
an 187064
ur@@ 187004
he 186899
time 186872
un@@ 184739
as 183510
because 183186
fa@@ 182871
yeah 181794
ver 181637
well 179281
day 177896
ge 176075
ght 175940
get 175839
j@@ 172202
no 171950
p 170863
ch 168698
sh@@ 168692
when 168419
that's 167927
really 167882
su@@ 167780
if 167489
mo@@ 167253
our 167123
i'@@ 165087
ta@@ 164023
tion 163034
ds 161058
sp@@ 159412
con@@ 159192
want 154921
ci@@ 154128
ent 153704
z@@ 153242
yes 153162
king 152553
bu@@ 152409
ok 152258
more 148345
po@@ 147267
ss 146981
from 146834
ks 142389
al 140087
for@@ 139134
hi@@ 139094
're 138748
lea@@ 136922
mi@@ 135822
qu@@ 135128
up 133917
ers 133551
ke@@ 133490
par@@ 131792
at@@ 130573
es@@ 130428
de 130024
th 127566
ther 126911
per@@ 126612
no@@ 126528
il@@ 123574
ga@@ 122309
out 121770
see 120925
right 120056
's 118306
fe@@ 117978
pre@@ 117768
ay 117671
you@@ 117282
oh 116955
comp@@ 116806
ll@@ 116203
ge@@ 115995
'@@ 115719
t's 115712
would 115284
many 115198
jo@@ 114954
ear@@ 113754
te 112406
too 110865
ting 110340
pp@@ 109853
wor@@ 109799
need 109343
ong 109198
ic@@ 109085
going 109002
x@@ 108509
ite 108184
by 108037
she 107914
lot 107480
them 107117
their 107045
tra@@ 107022
ba@@ 106933
e's 106605
o 106198
thing 106010
ine 105860
ure 105270
ck 104711
has 104450
work 104331
also 104158
ted 103791
sh 103467
wa@@ 102985
our@@ 101988
c 101886
make 101725
't 101350
ni@@ 101187
op@@ 100350
way 100061
pa@@ 99322
other 99321
now 99241
gu@@ 99162
any 99099
grea@@ 97659
wi@@ 96908
dy 96837
of@@ 96642
tr@@ 96331
ous 94950
ree 94818
should 93270
so@@ 92234
most 91291
love 90892
mp@@ 90054
el@@ 88983
movi@@ 88651
gi@@ 88596
new 88402
come 88260
can@@ 88044
go@@ 86938
ter@@ 86531
take 86337
et 86281
ry 85145
ver@@ 84791
ab@@ 84755
g 84678
mb@@ 84660
af@@ 84562
ct 84180
ld 83952
da@@ 83789
du@@ 83456
here 83112
lu@@ 82992
mon@@ 82916
ding 82582
ir@@ 82490
name 82380
ment 82327
much 81490
f 81449
ough 79862
hea@@ 78989
red 78731
wn 78571
fu@@ 78530
ep 78527
ound 78524
pe@@ 78513
then 78279
why 77348
ad@@ 77213
two 77109
eat 77043
gh@@ 76753
am 76509
his 76397
could 76312
id 76289
ven 75889
where 75581
end 75453
ess 75354
mar@@ 75192
ys 75057
happ@@ 74971
ity 74488
ss@@ 74312
were 73997
her 73935
iti@@ 73901
und@@ 73774
try 73766
us 73703
ven@@ 72990
always 72915
har@@ 72604
stu@@ 72280
had 71719
sti@@ 71568
ind 71507
ms 71086
oun@@ 70820
coun@@ 70568
first 70211
man 69927
b 69092
maybe 68644
gs 68582
been 68376
every@@ 68208
ru@@ 67644
wha@@ 67440
help 66866
ore 66641
bi@@ 66226
pla@@ 66198
ying 66089
life 66042
tea@@ 65957
wat@@ 65538
who 65135
the@@ 64825
pu@@ 64602
son 64426
able 64214
sho@@ 63119
x 62929
use 62688
chan@@ 62428
dn't 62342
ate 62281
ence 62217
things 61902
fin@@ 61744
got 61036
ture 60780
bet@@ 60557
home 60394
ke 60083
ten 59420
-@@ 59335
something 58971
ving 58814
ph@@ 58780
h 58765
which 58613
ning 58522
gr@@ 58210
ani@@ 58088
ful 58030
stor@@ 58000
mea@@ 57185
friends 56664
ans 56606
mus@@ 56354
ce@@ 55934
ation 55596
than 54787
inter@@ 54736
cu@@ 54662
na@@ 54433
only 54358
big 54352
re 54181
give 54147
feel 53815
sc@@ 53600
n't 53468
ther@@ 53132
ally 52995
frien@@ 52022
say 51805
city 51751
years 51486
ve@@ 51463
food 51368
eng@@ 51302
different 50184
every 50039
ic 50020
world 49846
gra@@ 49633
tions 49577
its 49445
china 49146
interest@@ 49031
low@@ 48892
school 48717
ls 48683
old 48581
sk@@ 48220
important 47890
com@@ 47621
mes 47316
little 46787
play 46510
ents 46041
family 46000
tw@@ 45530
kind 44637
sin@@ 43755
ons 43272
peci@@ 43090
self 42653
actually 42639
fo@@ 42166
cul@@ 41728
beautiful 40811
onal 40665
place 40469
thou@@ 39834
these 39832
live 39831
such 39635
tiv@@ 39596
sometimes 39197
chinese 39172
ant 39003
ir 38461
el 38447
yea@@ 38375
ust 38170
comm@@ 38032
usually 38027
spor@@ 37907
talk 37526
parents 37380
rela@@ 37309
uni@@ 37151
hel@@ 36687
some@@ 35667
gar@@ 35002
act@@ 34818
children 34372
learn 33652
ities 32741
gh 31865
wh@@ 31850
tal@@ 31314
imp@@ 29204
v 28267
young 27169
od 26989
u 26446
ild@@ 26072
est@@ 25939
lly 25508
advertisement 23984
hometown 23458
hoo@@ 21640
lear@@ 20419
whi@@ 18895
fri@@ 18133
fe 18122
town 17597
dif@@ 17096
times 16994
cause 16821
sel@@ 16103
thin@@ 15081
bea@@ 14938
.@@ 14410
mu@@ 12747
fer@@ 12355
ort@@ 11606
' 10921
fami@@ 10874
don@@ 10769
home@@ 10362
differ@@ 10160
tle 9902
ese 8680
ways 8539
chin@@ 8237
z 8032
ou 7856
fir@@ 7624
peop@@ 6878
child@@ 6826
q@@ 6530
ears 6401
wit@@ 6156
advertise@@ 5878
lit@@ 5595
beau@@ 4652
schoo@@ 4601
adverti@@ 4478
youn@@ 4416
ually 4140
that@@ 3830
1@@ 2640
0@@ 2480
2@@ 2440
fro@@ 2429
- 2280
import@@ 2090
q 1991
&@@ 1605
ere 1484
3@@ 1480
may@@ 1274
7@@ 1200
. 1195
8@@ 1000
9@@ 1000
ren 981
j 973
2 920
beauti@@ 823
6@@ 760
& 680
4@@ 640
0 600
5@@ 600
3 560
1 440
5 440
verti@@ 376
@@@ 280
7 280
4 200
/@@ 160
9 160
6 120
$@@ 120
ever@@ 81
+ 80
:@@ 40
ould 3
